-1557 -1916 -1276 -2660 -1421 -3071 -3028 -3271 -1257 -3431 -1275 -1795 -3035 -1632 -1581 -2775 -2747 -1643 -2087 -1140 -3350 -2076 -2667 -2212 -1134 -1236 -2736 -1416 -2201 -1937 -2398 -2678 -2011 -2147 -3216 -2446 -2595 -2760 -2164 -2659 -2329 -2684 -2373 -1408 328 -1166 -1964 -3638 -3371 -1759 -1696 -2978 -1576 -3134 -3391 -2579 -3136 -1334 -2361 -1922 -2067 -2190 -3693 -3865 -3289 -1091 -2966 -562 -1109 -3327 -5957 -7065 -5588 -3164 -2681 -5148 -2609 -3274 -3528 -2601 -1956 -2994 -2558 -1685 -3137 -2338 -3362 -1178 -2564 -1416 -3172 -555 -1074 552 1074 3389 7060 1549 3551 860 1315 1803 550 -1247 -693 -4320 -5865 -5834 -4621 -3420 -2974 -2511 -2893 -1127 -1377 -1369 -1820 -1766 3277 2163 3672 5040 6070 7133 3398 129 -2086 -421 39 -204 1988 224 -4786 -4936 -4537 -6744 -2585 -1370 -2011 -1726 -2061 -2348 -3263 -1911 537 4666 3055 3448 6510 5104 3685 3392 1721 2261 15 216 2576 -1761 2770 558 -2023 1957 1603 879 -2555 -1303 -2302 -2789 -1343 -2955 -1926 2950 2562 4248 8361 3758 5005 4507 6246 4250 2151 2548 1411 -1628 900 335 2296 -1197 1196 2488 2759 -2613 -1814 -2865 -3169 -2253 -2952 -2143 -1517 5769 7451 3000 3976 1916 1292 3179 2489 5441 3047 3276 3224 -1001 108 2241 2865 2564 3388 302 4247 -2988 -2823 -1911 -1791 -2648 -1249 -373 -909 4497 6944 897 -1546 2968 2077 1296 6016 5988 5284 1457 5619 4286 1612 3061 4067 4270 3055 -842 3458 2225 -6794 -3203 -3178 -2467 -1413 249 1078 6127 6390 5230 1297 2268 1962 4579 4206 3437 6758 5792 7399 7895 7495 4542 3778 3278 3195 -547 907 1628 -3161 -114 -1486 -2947 -1480 -1874 2182 7221 2392 5681 4730 1738 1693 -920 -238 905 -198 5806 5158 6253 6058 5374 2238 -520 1316 1667 477 -397 -2517 1055 -836 -2987 -2748 -1504 3434 4578 1477 -512 2180 -2579 -4483 -3496 -4681 714 -1954 -2870 -5005 -1223 -2578 48 709 -1896 -1332 -2755 -3046 -6339 -6997 1084 -1917 -2920 -1399 -1365 2110 -397 -1935 -6687 -4993 -5954 -3843 -4759 -1962 -5320 -5656 -10506 -7698 -6287 -3098 -2983 -364 -4256 -2125 -7905 -8691 -11733 -6732 763 -1295 -2874 -1452 -821 1061 -4059 -12505 -10059 -5141 -6950 -5939 -3436 -1779 -5684 -8258 -8217 -3514 -9016 -5003 -1144 419 -5176 -7262 -5278 -7326 -10778 -4530 1461 -220 -728 -2009 -2281 -818 -3694 -7378 -7561 -8521 -1820 -1539 -1070 -1154 -7944 -6096 -3307 -2326 -4022 -5824 -4555 -1160 -4641 -5648 -3955 -4529 -697 -2643 3292 1529 -1132 -3239 -2842 -21 -1413 -1535 -2362 -5075 -3223 -3464 -2548 -2023 -5292 -3611 -3889 -4043 -4447 -6158 -4315 -3784 -2728 -970 439 -427 884 7033 3574 2351 -1384 -1841 -1299 -573 -198 322 -3010 -4180 -2333 -5935 -2469 -2701 -5996 -1820 -139 -3667 -4254 -4566 -75 1371 3889 3676 5872 4325 2399 9113 6863 4832 -1396 -2631 -1637 -1102 83 3362 -60 -3502 -6750 -7165 -5599 -5848 -5420 -7738 -5074 -3913 -2303 -1917 2624 3207 3301 2704 2788 3898 1731 3348 7944 1785 -2849 -2087 -2627 -2527 346 2523 4870 -246 -3656 -4751 -6935 -5757 -6235 -6835 -3164 3 1493 2697 3915 2013 2016 728 4340 5327 3110 6145 3740 -373 -2829 -1307 -2317 -3496 -1281 3736 6907 2657 -26 1385 -245 -1994 -2408 -1075 3782 2289 3036 1127 1950 -2414 -1838 489 3899 2817 2257 4226 2519 -321 -2377 -1624 -2040 -2392 2205 6116 6085 5686 4650 2867 2150 -696 3332 1328 3275 1029 496 427 -89 -796 -719 -625 1163 2065 3491 2820 599 -1438 -3307 -1757 -2836 101 546 1323 -1030 2271 142 1336 1915 2060 2506 1222 848 1058 724 2266 114 1916 1970 -3595 -1041 3776 5841 3248 965 -864 -2164 -1847 -1564 -864 -504 -410 -161 2177 3208 5050 3918 1281 643 473 -98 803 1446 2123 3659 2647 3419 1959 -575 3701 3795 -9 258 -2647 -1740 -3160 -1294 -2735 -185 2672 875 3883 5718 -1815 4844 4610 5351 1891 -374 814 714 -1827 1947 1084 351 -1323 -1275 2141 -1297 -1418 -2098 -2941 -1656 -2169 -1556 -3074 584 3697 2175 3182 2136 -862 1228 1564 1174 1923 3240 5630 1572 -568 4313 381 -1805 -5947 -483 -1358 -1131 1401 -754 -2766 -3151 -2399 -2663 -1779 -1306 -829 390 463 3492 6207 2656 -1044 1633 6683 2046 1826 1440 1052 255 417 -1845 -8129 -5249 -3796 -2737 -1622 -1850 -1338 -1300 -2544 -1834 -2255 -1221 -4625 -5267 -3278 -3148 -3138 -1949 -541 -379 -2872 258 -2980 1857 -440 -1558 -1372 3294 -3831 -4000 -3128 -1507 -1707 -2838 -1851 -2684 -3018 -1978 -1938 -1113 -1243 -2226 -1686 -2513 -2945 -2737 -796 -2004 -1915 1472 -638 -1325 250 530 -800 -1754 -1888 -1674 -1653 -1060 -3051 -2518 -2555 -3308
890 1361 1525 1324 2695 571 611 1850 940 2752 1763 2781 2689 1217 1589 986 2462 2311 2051 2138 1395 1989 2168 1907 1543 1117 696 2001 1984 1194 948 1832 1318 2629 888 1803 893 1886 798 2142 2526 2303 1668 2128 2169 738 930 405 1649 558 2310 2248 1250 1563 1937 1233 1805 715 1812 1081 671 588 702 1408 1955 725 2224 1583 5153 3292 959 5717 4487 3898 302 -886 -1817 765 996 1842 2890 2339 1924 1909 902 752 2678 736 993 338 1723 871 2015 3416 -3780 -4605 -303 2009 -3440 -2292 463 -2710 -6496 -4055 -7991 -4166 -3249 -2036 -636 2364 263 1858 2026 2760 987 1601 1796 -1204 313 -1910 2495 882 1658 -1010 2733 3513 -341 254 742 -1283 -4272 -581 -2491 -4796 -8105 -7698 -8524 -4501 2058 672 654 1677 1011 569 3697 2016 1319 -865 -567 -2302 -2948 2285 2852 -321 -781 2051 -1474 -1749 -2919 -1044 -555 1222 341 -1071 -4186 -5712 -1396 1797 2148 1309 1432 1272 1970 -5477 -842 829 705 10 2438 2775 2696 1834 2002 -470 -426 -1787 -369 -4273 -5663 -1387 -4602 -3824 -5840 -3601 -76 795 2307 866 108 1362 -368 -5505 -3604 -436 512 -658 -890 -63 446 2047 2015 1251 648 -3575 -2929 -1785 -767 -2635 -6860 -14091 -14634 -6080 1691 816 955 1837 445 -140 2260 -2270 342 1262 -1337 -2541 6 -3178 858 3849 3560 2595 -1341 795 -2150 -1661 -3403 -3838 -5658 -19484 -19196 -6468 1517 2022 2131 1883 762 1839 -3101 108 -1574 521 -2689 -238 413 -2623 -304 2751 7136 8578 5146 1782 -1100 -6071 -5446 -3066 -6694 -18605 -17296 -6923 2533 1733 640 911 985 -1468 -3696 -2411 -1490 -2362 -1437 -4438 -341 516 2479 1427 7971 10545 7718 4751 1347 -1971 -8082 -5558 -15817 -20141 -18513 -3962 1327 2196 846 119 484 -2087 -4052 -531 218 830 -1126 -2053 3132 3569 1846 2868 11209 9765 7018 5007 7226 2748 -1733 -12982 -18669 -19737 -11594 -2246 2683 875 1286 2043 1516 -1214 -285 488 -1895 -47 725 2052 -2892 -2621 -3338 1405 10099 8970 6354 9545 5229 367 -16502 -16496 -19523 -13333 -1386 3128 1345 1197 2852 1775 34 777 -87 -1737 -3622 152 870 1746 -3076 -3517 -2301 5176 8712 9123 8873 7920 2224 -11177 -19113 -19493 -13358 -7300 -441 2041 5351 3584 833 2094 1784 473 -1989 -7141 -3002 -3363 -3070 -1595 -4388 -4589 -699 7454 8437 5201 5084 2304 -2971 -13834 -17754 -12672 -7176 -251 -136 1085 4766 1447 1666 1657 1149 2985 -441 -7672 -5569 -1076 952 16 -3742 -3278 454 7981 9861 4799 2455 -3130 -12095 -15584 -13325 -5750 -304 2774 1879 2492 4220 1409 1803 2246 1670 1809 530 -7012 -2303 3126 1322 1191 -1307 1257 1115 6224 7777 -1966 -377 -10786 -11247 -12127 -4566 -876 1898 5290 5244 6796 5508 3202 847 2852 2432 750 -685 -6678 -5875 -3491 -2393 -136 3844 2767 2432 4270 3374 -4603 -8933 -11322 -7936 -5746 1640 1762 2488 1310 2177 5227 4483 1959 2031 2646 1892 3632 -2486 -8951 -7823 -3627 -832 2355 2486 865 -509 978 2763 -3802 -5261 -3380 -896 922 3913 3242 5425 3090 3255 5407 1499 2246 2422 368 659 4948 156 -10958 -4035 2268 -3401 3090 613 -4363 -1582 876 -916 -27 967 -663 1930 1896 1888 -2293 2695 2532 -560 7116 3062 2188 1647 662 521 2356 2356 -10677 -3867 1879 -1199 -1217 -641 -981 -746 -382 -1069 -639 2200 2420 1832 1030 3323 2521 1259 -1159 3469 3137 2692 778 1419 851 1136 1970 20 -3538 -3210 -375 -1129 -99 435 -2418 -4818 -3415 73 116 -710 1735 3419 2476 3949 3847 -584 621 1432 1622 489 2321 1365 1426 616 711 -117 7607 1042 -1965 348 924 -1834 -3057 -5130 -2451 1830 -915 -296 82 3938 649 2217 6372 -712 -3670 1558 2958 520 1015 1665 748 570 -1060 -2941 397 -1279 -2567 -566 1612 -2479 -1670 1779 -370 -2653 33 761 2676 2026 2289 2125 4770 2389 -993 -1349 1277 772 2099 1710 1383 1155 -1813 -3281 -407 -3246 -3374 -4077 -4053 537 -105 -3337 -4379 -2587 -1443 -2081 -1135 1464 36 -1684 1698 48 777 1234 3301 1467 847 1946 2789 813 2290 1462 503 -2842 -3447 -5456 -5891 -8977 -7520 -5219 -1370 438 -4728 -2827 -1699 -5236 -7501 -952 -2184 -3379 -2379 -724 2703 2318 1087 2548 692 1170 2632 1956 2395 1570 1117 3478 5680 2245 2364 1291 -2671 687 -623 -1337 3629 4073 -307 757 -376 1530 1433 1011 2028 2052 1216 2004 1943 709 565 2078 1653 600 2385 2196 874 1068 1096 2560 1100 3339 3086 1867 300 2538 2159 1889 2237 1315 710 2005 2516 2500 1499
1084 2327 1283 1646 299 2400 551 608 1629 1542 118 797 1062 617 1328 779 1007 1655 1184 847 715 1495 777 639 851 646 2386 1972 281 2057 912 1726 1816 2287 1625 -1026 159 535 26 -626 -311 -450 2200 595 -1952 94 1958 394 771 1013 -220 1013 2056 130 1796 1871 1911 2227 1893 259 864 639 106 -415 -1495 -533 -3175 -4118 -5955 -3176 -4906 -5182 -3467 -2751 -4287 -1498 -1637 -1481 -964 -199 -226 1569 1165 2330 1746 1928 1912 626 1924 1852 -1202 -4318 -6221 -7220 -6116 -5113 -5042 -8938 -5580 -5086 -4219 -2898 -6625 -7891 -8576 -6170 -3306 -1754 -1541 916 813 122 1032 1801 1742 619 1659 229 -2130 -4124 -6169 -6392 -5645 -3978 92 -94 -2744 -2276 765 1484 -410 -1999 -2799 -2175 1933 1863 1359 -2308 1021 1430 1953 1209 1290 493 -355 1123 -978 -3540 -2655 1764 923 582 -1519 -3696 -3929 187 -2356 -2547 2501 -2114 -4279 -6079 -3311 -443 27 -3013 -134 1448 539 770 1352 4167 -243 2915 1235 1286 1384 3879 515 1215 -1751 1022 1264 -398 1047 2759 3222 -567 970 3120 -1902 -4147 -2711 -2947 -263 1351 2008 1371 2989 5661 2235 -2950 175 -1210 -2877 1817 -1002 -720 492 1847 2543 2026 2736 5370 694 1319 2312 -1302 -3075 -2898 -2194 -2490 3794 1552 1895 2124 1221 4644 1360 -198 -1023 -598 5125 92 -2257 -194 -2769 -2012 1406 3018 803 2282 2975 732 -107 774 -4431 -6486 -3283 -537 -675 -146 2391 799 2160 1841 375 -2818 -168 1032 1736 -1740 -649 -2333 -1209 -1553 866 5491 5169 4284 3460 3022 1483 -2417 -787 -4847 -6998 -4792 -2049 1295 2136 1601 1437 -358 -964 -2533 -608 -2167 -3176 -3008 -4110 -5088 -4870 -3987 -2956 3363 4136 4310 358 1556 1417 -2070 -1387 -7846 -8057 -3525 -4018 1429 209 -171 319 -260 -2562 -4535 -4936 -3476 -371 -1297 1159 726 1610 -1590 230 6702 4659 7471 3505 1536 6055 2408 -296 -9953 -16649 -7296 -1447 709 1448 1340 -118 -2201 1086 -3723 -1977 1130 500 -1925 3278 2132 256 -1536 3163 6940 6576 6410 4793 3473 1202 1729 2000 -6043 -15548 -5987 -1048 1714 1970 1425 796 -732 8314 620 2692 2404 1903 1057 1672 92 -1437 -338 3491 3922 5490 6058 4621 4236 4627 7028 578 -11583 -13154 -4852 -2705 965 2195 1097 -117 3046 10086 942 1092 3423 4632 2236 2276 1465 3041 1590 -504 2428 4467 6769 5529 6808 8312 6447 2992 -6777 -11031 -4981 -1308 1399 244 2196 377 1737 5554 2854 530 1835 1937 -841 3762 4811 2380 -1174 -3532 2641 3168 7293 2779 4117 5605 4456 5998 1619 -13707 -6426 55 1445 1838 1783 460 -5056 -1149 2809 93 3361 4117 -461 2058 3194 1237 -4120 -3525 1899 1841 3228 3680 3558 3235 -2021 450 -3013 -10718 -7488 -2053 2236 601 2308 -1568 -5685 -5734 -2789 -4992 486 2833 -713 -490 -1175 -1577 -1649 -1224 2553 1312 1889 1854 -816 -2078 -1561 437 -4746 -9479 -4515 -548 1691 1853 1537 904 -3924 -8565 -4670 -6539 -5709 57 -126 -87 -232 -6142 -3874 -545 2603 2842 1212 26 -1558 -2419 -734 -5095 -14636 -14482 -3843 3039 722 2256 1382 -722 1363 -2657 -1626 -624 -4642 -3838 -4842 -6252 -4955 -6256 -5109 -34 -3769 437 -1003 -930 118 -3451 -3002 -11288 -15515 -10157 -2279 637 1972 836 820 524 97 -933 -1682 -109 -5765 -6262 -5393 -6077 -4498 -5682 -3294 180 -1659 1267 1303 -1388 -1980 -6600 -7436 -12413 -10599 -2629 1344 1645 411 1290 1793 -824 -799 -4986 -1966 -4974 -4571 -86 -2277 -566 -2784 -495 -3977 -4817 -1915 -338 -4792 -3024 -4062 -4905 -5799 -10160 -8709 -2231 -996 1263 971 1562 2319 915 -1265 -3944 -2488 -791 -3070 -982 -2997 892 -2325 -1775 -4294 -939 -3800 -2652 -3691 -5748 -2883 -2776 -5946 -3966 -3081 -1041 943 1858 1680 963 594 808 -493 -3362 -914 1336 3203 -208 -2272 473 -1282 -4353 -2783 -2500 -3903 -5998 -4193 -3342 -4528 -3729 934 2972 -894 271 -264 398 327 641 710 194 2418 5362 8251 7476 6081 792 -3131 -739 -1346 -4272 -5333 -6013 -6538 -5245 -2608 -5420 -3371 3574 4524 4204 2082 -1978 161 978 2227 1300 861 1342 705 3389 8829 4676 4109 8303 7959 4197 2675 2636 660 1726 -2668 -2225 -1949 980 -2827 4190 3464 476 1078 128 659 808 1598 1294 143 1813 702 1400 4690 7036 5559 6175 7479 7876 3586 2900 4419 8536 3689 4743 4704 3598 2522 3035 2267 2714 1232 1981 1328 1675 1390 196 1635 427 1271 114 273 1277 945 847 715 229 1074 896 1091 1346 2556 1752 226 2889 1744 2823 2264 1214 217 1438 2149 913 1829
411 285 943 -787 832 165 257 -857 -372 612 -21 -877 639 -901 -653 401 -895 -500 -209 128 761 924 -644 -927 881 642 -121 -190 -849 544 824 -175 939 28 -1248 -2399 -2678 -1220 -1019 -2589 -4161 -3036 96 -1386 -171 -1686 -1546 -2534 -136 -733 -1102 -282 -564 -209 -1205 781 -396 17 83 240 -1292 479 -2185 -4699 -5412 -4080 -6645 -5462 -3140 -1850 331 2198 608 1722 -1039 -4585 -886 -2602 -2897 -585 1387 540 624 -1130 614 968 -1053 -851 -882 -2083 -3787 -6547 -8900 -7027 -3696 -6502 -7784 -7720 -4522 -3164 -492 2134 3768 -1901 -2258 -3040 -706 -2833 -1044 1941 -286 -834 -479 -363 -448 552 -619 -4354 -6934 -6142 -8159 -7565 -6234 -4120 -2604 -144 1836 1476 6043 4390 5882 2959 4204 -344 -13 -3415 3130 487 -892 446 736 -568 569 -255 -2496 -6935 -8284 -5183 -6569 -6626 -9120 -1890 1090 -848 410 1950 4895 1658 4264 4677 1293 2311 1003 984 -985 1944 -1703 -253 -86 -1073 868 1238 -232 -1509 -2867 -5888 -853 3386 1406 -2090 -300 -2348 -4675 -454 186 99 1317 4021 2432 1283 2675 5502 1480 -1222 541 -1220 -1197 869 -865 1450 7246 3228 4509 1790 5389 2959 451 -1419 -4315 -2577 -7795 -3029 -1729 -2837 2664 4688 2913 3137 3971 4805 2360 1018 3410 -610 -544 475 580 2616 8822 4388 8437 7666 4049 6122 4612 1874 2644 353 -5260 -4610 -1721 1409 4723 6698 5204 1714 3050 2573 2442 3355 3641 944 60 -1035 708 2612 5713 7689 7080 6071 4906 7412 3415 3737 4034 2167 -6875 -6707 1246 5966 6087 5127 4770 4779 6431 3057 -4593 1566 4658 -798 -612 524 -1069 2587 570 4999 3906 3649 4331 4851 2926 1458 1175 -5604 -10299 -7175 990 4154 5286 8774 4935 4580 6060 101 -3207 -3375 413 30 -685 400 -1333 3419 2309 4209 1361 2944 2165 3364 1270 -1690 -1707 -9498 -7811 1283 3055 4019 4493 8038 4815 -598 2179 -281 1862 868 4535 1133 880 -1082 -473 379 -1134 -2554 -8275 -4527 -3916 -4491 -3886 -4759 -1642 -3047 -1713 672 2500 730 3568 9410 8201 4644 211 -426 4150 8282 5937 805 527 -687 -1156 -1054 -4651 -6960 -7547 -8315 -4917 -3801 -4336 2437 82 383 -1464 2046 1571 2117 4653 4348 7072 3184 -1796 -4786 2854 12773 10332 2076 432 488 -402 -521 3031 -6014 -6445 -4651 -3389 -4162 -953 4367 3477 3222 2775 1049 1112 6775 5063 8308 1608 -1438 -2065 -1921 2031 7869 4686 -358 971 -442 1510 4702 6666 -2139 632 -3590 -720 1264 372 5465 2455 4849 4507 5098 3544 5628 2811 2948 -3910 -2231 960 -2763 21 3058 5118 -247 89 735 685 5280 2340 -3037 -1521 -1284 1299 2946 3426 1818 6698 7466 5090 5748 7692 7569 2792 -2631 -3310 -847 -616 1326 2104 5517 5553 1544 -652 -1002 1807 3013 2969 -1745 -883 2250 2774 4640 1354 4379 8295 8717 5584 4289 4749 1287 -1545 -1827 -2807 -479 -2054 -1660 1238 1724 3393 -1217 581 733 1343 5339 -241 1366 9 1030 1663 1476 -699 1534 4079 4170 1614 1740 347 -2827 -1572 -196 -2774 -3921 -6181 -3126 768 665 -940 188 -1054 904 -152 3287 209 1235 -340 616 812 219 -2693 -4636 -4193 -1281 -962 2324 -504 -366 -1537 -3550 -5344 -7945 -6246 -1372 -3064 1482 -592 -673 912 733 421 4552 5189 -2197 2982 3479 -383 -1863 -2983 -3564 -3221 -3538 -2679 1285 -628 -1523 -506 -1008 -832 114 844 1399 3087 575 86 -580 -72 -673 1547 2630 -65 875 2525 494 -706 -347 -1410 340 -1968 1236 -1620 -329 -877 -814 -2891 1825 -782 677 179 2325 -1004 -603 -1450 -1012 -605 -904 449 1086 1699 3016 4487 3809 -363 -2028 -1666 2185 1158 982 -294 -2670 -2061 -1200 -1665 -641 -1087 2525 835 -223 817 1001 -1731 853 576 487 607 -603 632 -3462 -2218 328 2087 -641 -1453 1491 -874 2048 -269 378 922 -1310 2601 -511 1768 4183 1404 3134 406 711 560 441 -280 -5 -348 -1432 -1132 -6814 -1332 -3535 -882 -1586 484 4847 1148 1251 2482 -745 4265 -2371 -3584 121 1773 1993 367 -753 232 2174 -933 -368 942 408 -879 -1349 -2212 -1875 -628 -389 -3970 -1874 2347 2514 438 -26 4138 4227 2298 440 -2106 -5940 -5131 -6630 -5708 -3925 -2902 -842 -520 -1180 418 -1092 -512 422 -1612 -958 -1456 -1331 -1830 -2678 -2056 -4492 -6368 -4080 -6335 -7998 -5211 -6185 -7451 -5769 -4455 -1932 -920 389 922 -1144 -1000 -829 -666 160 -884 -84 -329 149 -930 518 -260 620 -102 -202 435 658 -492 -890 -1101 -991 -6 -542 -305 1009 -938 913 -969 692 -71 402
-1675 -502 -1119 -1368 -1330 -1282 -1844 2 -1374 -594 -720 -135 -1320 -1208 -1938 -946 -174 -201 -1058 -761 -2129 -2213 -1665 -1499 -878 -2091 -1673 -1213 -1880 -285 -603 -1990 97 -862 -947 -2184 -1025 -758 -1607 192 -1004 -1706 -1747 -2788 -4277 -2972 -561 -1894 -1772 -392 -1078 -2168 -1718 -1115 -134 -932 -956 -1792 -1560 -1633 40 -2172 -833 -561 -2160 -5052 -5100 -4662 -4245 -4736 -3536 -3405 -3316 -318 -641 17 -203 -1654 -182 -1928 -981 -2219 -1827 -1484 -2235 -1596 -174 -1642 -1313 21 333 -43 -1336 -6117 -4026 -3986 -1203 -5406 -1851 833 204 -37 2700 856 5226 2083 2939 -1084 -882 -280 -955 19 -984 -1294 -1861 -928 716 2023 -16 1754 1785 1004 1386 -49 2563 2661 2088 3448 4785 2480 3487 3847 -1643 3764 2169 1824 4480 501 411 -913 -800 -2007 -1083 857 1246 1654 -321 1897 -4374 -656 -1106 497 597 -1055 761 651 3956 516 -202 2664 3771 1747 1570 4755 2634 3666 -265 -728 -1660 -495 -949 -1743 -1632 -752 -3373 -3984 -7 479 -1370 -1116 23 478 458 -2641 -3663 -2548 -638 858 2158 -430 418 5271 11418 6704 881 -16 -1759 -1444 -4015 -4448 -3530 1887 -3500 -119 2246 254 -1032 -1198 -1963 -3496 1483 -1449 -1434 170 -1758 -863 -387 -931 -101 2289 8216 10797 1347 -1188 -1850 -2557 -3275 -2449 -2882 1357 -2914 -1796 -1907 -1454 -1398 -1603 42 878 -82 401 -107 -121 -430 539 2289 573 613 -870 11840 14585 2311 20 -1195 -2955 -1944 -2968 957 -5378 -858 2898 1297 -234 40 415 -2351 -1926 -1698 992 -334 -1097 -1216 -1760 -440 1938 1889 -638 10606 14824 1317 -3164 -1929 -1567 -5980 -3588 -1379 -6630 -2728 815 523 -1043 1048 578 2213 1987 2525 3424 -954 -929 -3063 -3117 -3661 -4764 -492 468 8087 13288 3804 -1327 -1740 -3190 -7092 -5738 -2092 -4320 -2485 -3463 -2706 -1457 -734 70 2713 2528 6090 8342 4012 2066 -2022 -5889 -6124 -7890 -8709 -4650 2224 9507 1949 -177 -15 -3973 -8831 -8974 -6778 -5866 -1232 582 -2841 -690 4474 1900 7153 7303 9116 7591 3719 1612 -2243 -6491 -4653 -5147 -13118 -16912 -11103 -2756 -293 -2515 -1730 -2902 -3930 -5809 -5392 -2342 -1336 1430 2380 2906 -1066 674 7032 9318 6178 5948 4075 3911 414 -1531 -63 -4943 -10345 -11844 -13386 -6002 -2990 -1924 -454 -966 -1886 -3952 -2170 -3187 -662 -1859 714 2405 384 -1264 6474 5789 7001 5625 4832 1182 -5862 -5127 -4238 -4648 -6876 -9231 -4798 -4795 -2809 -821 23 -1244 -424 -3068 -213 -6452 -4199 -5496 -1941 651 -2491 1494 6981 6482 7006 1776 1021 -5758 -2874 -2751 -3662 145 -3338 -153 -207 -2723 -1433 -998 -219 -1765 -509 -2735 332 -4391 -6448 -6657 -7127 -4362 -4740 642 1738 5261 2970 -888 -4253 -5617 -1119 -2032 -2372 -2837 -805 3959 4176 -7132 -6467 -1764 58 -526 -991 -1269 3196 -1980 -398 -1299 -4821 -5159 -4103 -4755 -5600 -1731 -411 -3994 -1092 -45 -362 845 -1573 3614 -1838 3874 -285 -12527 -5051 -2540 -1955 -2073 -2573 3152 2945 2610 3104 -3305 -3546 -2295 -4290 -4032 -4064 -131 284 1440 4506 545 -892 -41 2108 2941 886 3570 -1717 -6959 -3367 -2019 -666 -1856 -1513 5836 4209 2921 906 -2494 -1009 -1252 -641 -4242 -5648 -671 3215 4132 2455 1469 4253 1520 3036 3889 100 1757 -1954 -5341 -2530 -322 -2175 -1246 -1407 4342 4988 377 2581 -784 2137 3826 -321 -678 -3814 -836 1932 2574 4814 6277 6269 3203 3570 4322 4115 2910 -5820 -4020 -754 -2171 -798 -933 -434 1709 4710 -279 461 1689 4016 410 122 -304 428 -212 2665 3784 2589 4246 3485 2414 2060 3909 4436 129 -6257 -3268 -2577 -681 8 48 62 3459 5436 -163 -2869 -1710 -1959 -1456 401 1336 -2851 -698 472 2967 2399 3936 4977 6132 3140 4571 2647 1131 -4560 -2946 -1678 -1334 7 65 1198 5443 8907 6363 1898 -679 436 1071 1990 1226 479 330 1005 1611 2293 3242 4034 1922 4153 -1721 -4484 -534 -1913 -1872 -1050 -2200 -1957 -1880 -974 3808 3222 132 2034 3088 470 3171 2292 3199 1413 1793 1251 75 1803 721 1599 856 1850 -2042 2560 2601 -1424 -1683 -1924 -38 -327 -1145 -547 -467 -2354 -4182 1725 3706 4902 7771 5453 3141 4515 6331 318 2444 2003 1533 2024 3899 1707 2428 6177 4302 315 -1704 -1294 51 -657 60 -728 -1921 -1995 -1561 -4276 -2607 -4273 -6087 -3986 -3593 -4118 -4061 -7684 -5699 -1985 -4142 -7023 -5477 -3383 -3054 -2591 -870 -202 -1517 -2124 -629 -962 -1135 -2191 -954 -566 57 -1943 -2629 -2437 -1571 -1570 -1956 -1843 -1970 -3202 -1283 -1123 -2034 -4053 -3229 -1889 -2934 -2378 -1117 -842 -2097 -528 -1343
-519 -1526 -1581 -1322 -1208 -739 -1491 -1291 -135 -245 -1410 -1183 -233 -969 604 273 447 395 -579 256 -455 -692 -1272 -1451 342 628 -1409 -1026 614 -597 354 595 -1354 -607 -1023 -128 -1558 -850 -197 931 1827 -608 -1191 1424 1656 1610 -598 -1272 -1017 258 122 557 -529 -1133 -1362 -987 -982 -947 396 -632 -193 -386 -1094 33 -1578 -2155 -1946 -999 -915 -334 -2751 -2713 -256 -176 820 -890 -2945 -1678 -1698 -898 -1188 -387 -262 274 -349 -1478 -869 1468 -761 -1725 -1474 -3488 -1915 -4193 -3093 -7050 -5391 -4709 -4846 -2205 1173 1418 -822 -5014 -2981 -1472 -1628 -1733 -2202 -869 -876 -792 -1293 -1493 -15 -1177 -611 -1416 -2704 -6343 -6822 -7035 -7433 -4008 -4210 -2823 3503 7570 1170 3230 3205 684 -2126 -3553 -4842 -3881 -1439 743 1537 -1683 340 -509 -980 -1398 -1083 -2635 -5334 -5754 -8655 -5317 -6440 -2238 -3499 3091 1882 2239 263 758 -38 718 5062 3431 3558 -5968 -3443 2509 786 -883 -180 -1142 360 -643 354 -813 -948 -336 -3719 -7281 -1366 52 -3846 -1477 -2043 -3314 -2517 1088 3878 5858 4314 7468 5679 1291 -473 1942 1215 -583 -1384 -1514 -958 -93 -660 -2162 30 415 -3225 -3494 -651 -5153 -969 -3456 -3955 -1932 2587 4975 5860 3027 4652 4034 3732 4842 -749 735 -2105 -1030 -359 275 -1026 -1704 -2692 -345 1383 -471 -178 -399 855 -2274 3856 3023 2509 2995 7395 7737 8724 5706 4782 4852 6354 6549 5450 -438 115 674 -1066 -863 546 490 -2112 2577 1845 -1557 775 1821 2618 1462 5397 6949 4089 545 3133 8987 4984 8224 5009 3508 2844 3326 9193 5473 4592 -1278 -254 1126 664 -966 3074 -778 -2812 -2026 -524 873 2502 6829 6549 5635 9551 4489 5923 3213 3515 1902 4006 4462 4079 4664 7001 4809 4726 559 557 94 3499 2149 -565 -6087 -2635 1526 -946 -3930 -735 1574 -1483 7125 11592 3574 -1764 -602 -239 -1250 4162 5739 5634 4724 12304 5241 2241 1148 -887 560 2771 3202 2774 1831 2687 27 -4305 -2953 -3967 -5286 -6024 -917 6707 -268 -4724 -775 -713 395 1328 3433 5576 7790 5150 1888 1245 1268 -819 -135 2189 3936 4122 205 1040 -1548 -1805 -1758 -4831 -7252 -3080 1013 1309 -1842 -3885 -3204 -2831 -1719 464 -554 3492 2941 2454 -3890 -412 -715 -463 -1152 840 828 -3463 -627 -1254 -2729 -3353 -1659 -3222 -5207 -1203 2777 813 -1986 -4903 -1983 -2861 -2453 -979 2054 -863 986 3979 -2385 -996 -835 -1242 184 -128 -1693 2280 2239 -4732 1904 -514 -892 -2356 -3539 494 298 -4656 -3719 -6667 -3788 772 -1698 342 376 -2592 3190 7772 -2554 -1300 -1669 -1581 129 -6 -163 2171 3074 114 -468 1546 -470 -624 -1923 -572 -5165 -7214 -4311 -2799 -4193 -5537 -4354 -2331 -3636 -1946 -616 -2596 -6581 -1644 387 324 373 -2626 1535 990 819 2640 39 121 405 -779 -470 -2713 -4590 -5126 -1813 -1209 -2730 -5136 -2894 -215 -794 561 466 1839 -5283 -1150 -1341 -817 -694 -1991 -4135 -718 -2099 -368 553 2616 5024 2971 623 -7878 -6971 -1479 -1221 -3504 -474 -1096 -5631 -2480 -1802 1377 -3522 -2178 -1417 -9 -1318 450 -193 739 -7005 1264 -2098 -517 -3051 3409 2110 2156 -3445 -80 -5035 -5514 -1395 -1058 58 -1062 -3564 -2252 -3403 700 -2812 -2783 536 150 396 364 286 52 -5893 -3147 2597 512 -925 3055 1548 6338 1421 231 -646 -4708 -393 -2439 1828 -1804 -2791 -5766 -1091 -2193 -9426 -6467 544 -968 -227 219 -1343 -3619 -3935 -777 4147 8346 9661 -720 2730 6141 3726 691 -3378 -5343 -3708 -2710 -4141 -2281 -6817 -4643 -2496 -6178 -10548 -5780 -2014 257 -57 407 189 -2411 -3700 -3008 1086 5497 6332 4174 3482 1310 3117 2768 1953 1644 -1609 -2502 -2124 -1200 -5496 -8766 -9929 -7030 -3484 -2469 -1957 -1281 -914 -1506 -1595 -1262 -2034 -5344 -282 1100 433 2263 2784 3646 3933 7492 6746 4339 2840 -19 -137 -7794 -10233 -12409 -10396 -5697 -1771 -651 -807 -619 -39 -84 660 -1594 -2240 -3369 -870 -6605 -3689 315 -2471 -23 -161 4651 2330 -400 3413 -3215 -2076 -1517 -5747 -6456 -7163 -6536 -2965 -1493 -752 332 228 -1349 -1104 532 45 -105 -2208 -684 -1165 -2156 -2943 -6627 -5137 -4268 -5153 -5893 -4191 -742 -538 144 3694 -14 1141 1527 -779 -1017 -1594 -1026 -1310 228 -684 -203 -1133 -44 -1864 -2797 1485 2482 5241 2910 5350 5188 6282 9721 5382 6044 5576 5238 4161 2329 408 -883 -1178 -125 -62 -343 -1574 -1299 175 -334 -1450 -1210 -375 -117 1538 1045 381 1923 -642 1521 693 1710 848 -605 443 668 307 513 533 663 572 -758 -1055 -236 -751
-1803 -545 -2159 -2548 -1142 -2095 -461 -1639 -2284 -501 -1528 -2542 -604 -2642 -1321 -479 -670 -1004 -458 -2420 -1213 -840 -2218 -2051 -1660 -595 -2696 -938 -2397 -1213 -698 -1119 -1541 -479 -747 -633 -27 -843 -983 -790 -1992 -392 -1528 -2723 -3825 -1413 -355 -243 -2309 -134 -1513 -1551 -2583 -812 -2623 -1944 -1214 -1697 -740 -2362 -1666 -654 445 281 1105 65 -451 -2453 -2207 2249 2474 1827 1969 2528 2710 3699 512 1079 -924 -1627 -2700 -2798 -400 -1390 -441 -2095 -603 -2668 -2060 -1403 665 1371 -15 -1535 -115 -2523 -3180 -3834 -2160 -609 -443 1232 5649 4713 1171 5782 4628 3452 -1245 -2579 -662 -2410 -1459 -521 -2517 -1769 -160 -1987 -6488 -2816 -4543 -4799 -5200 -4390 -1735 -4826 -2504 -2734 -1247 2332 742 3719 3098 7155 3966 7653 3654 -38 -632 -1059 -1903 -1424 -497 -3732 -5026 -4944 -4528 -2312 -1301 2957 196 -1678 329 -2302 -667 -3136 -3763 -56 36 -1507 1061 1360 2642 5306 3171 1368 362 -2094 -2052 -919 -1660 -1340 -2458 -993 -1798 431 1348 556 -1726 2512 900 -1995 722 -2140 -3156 21 -2803 3082 1720 -80 2623 4047 5559 2880 378 -1164 -1718 -1069 330 291 -5191 -2745 -3293 1822 1568 3180 4298 1974 652 -1098 -3389 -680 -2134 157 -211 541 2010 2858 3177 6723 8837 5174 -152 -901 -1603 276 2071 109 -6239 826 917 3918 5773 7006 2621 4860 2628 -540 -413 -3035 -2442 -2155 -154 -2001 821 1330 -1144 3403 10611 7123 -205 -2824 -776 901 994 -1837 -3623 -1066 2237 3606 5877 3512 3502 6973 6116 1609 -2357 -5983 -5114 -1402 -418 -1641 -2210 1615 -145 -1185 10518 6491 -903 -1393 -2362 723 472 -4246 1942 -542 -142 4084 6051 9179 8045 6536 3718 1656 -1685 -2101 -2035 -3431 -2153 -1025 839 744 -2963 -3159 7518 6206 -504 -2146 -892 165 3315 -708 950 2123 3439 6924 6334 7656 9369 5955 3316 2276 980 883 3114 925 732 -2318 -1860 -344 -423 1253 1653 426 8 -502 -2111 -892 2674 3260 1731 1644 3684 8759 5350 1212 812 2250 -3191 -2824 -1988 4347 4980 3128 507 -2497 -783 1787 4524 7456 -2869 -4179 -1691 -1502 -1705 -1138 2454 216 5279 2827 3313 1792 -802 -1943 2098 1007 -3746 -4073 70 5114 3708 1427 304 720 4240 1937 1800 -343 -3848 -8871 -8981 -3181 -839 -801 -616 615 2839 3513 1017 -3715 -383 120 2260 603 -2360 528 1425 3146 1688 1919 -995 3159 -113 -4250 -1090 -1548 -2050 -7553 -8113 -2386 -828 -686 -209 -2349 -5233 -7460 -901 -2334 553 -213 2693 1799 51 830 3579 2740 -245 2725 2583 -2612 -2907 -4398 -2626 -1706 -4099 -7647 -8783 -2717 -1702 -1236 -2436 -6489 -7612 -8131 -1568 -1306 4263 70 568 -672 2188 2364 1212 2992 925 556 -735 -2904 -3707 -3718 -3491 -4164 -4153 -10536 -9720 -3676 -451 -638 -3892 -6681 -7522 -4315 -3979 -3434 178 2287 1534 2335 2969 3467 4132 2309 1266 1275 -181 -4401 -732 -2748 -48 700 1807 -7822 -5880 -3577 -370 -2270 -2004 -5845 -5619 -3399 -614 -1349 -832 2343 1140 3114 3492 4657 3645 2498 386 -2132 -2017 -2136 -416 -3029 -4807 -2122 -111 -5557 -1333 -2413 -1919 -465 -925 -4403 -2294 -2380 -290 -1936 200 -1162 -3277 -552 2856 2792 3600 1057 -1994 -3901 -3614 -1224 -768 -3139 -2917 -10 -115 -6672 -3460 -1090 -2315 -1441 -1514 -4698 -8047 -3239 -3730 -4464 -2918 -2806 -1295 -1487 2572 844 1441 1544 -2193 40 -3880 -833 -5259 -5026 -1510 2903 -3416 -4862 -2394 -892 -2414 -2544 -4915 -5844 -4026 366 -3792 -2060 991 1034 -232 1019 3609 2296 3341 2429 522 584 -2709 -4564 330 2338 2995 -951 -1519 -1878 -938 -1391 -1294 -478 -4366 -5654 -2532 -2168 -5836 -2869 -2278 -609 -796 -1599 1704 516 3514 1845 2461 -781 -2332 -731 335 1196 -2480 -2902 -1120 -1981 -1936 -727 -2214 -792 -2904 -5096 -4538 -1284 -720 -3580 -2849 -1338 -962 -3419 -1438 -1934 -222 2151 1631 1000 -2204 -940 554 -4201 -4020 -4370 -1788 -1954 -1450 -1844 -1678 -533 -3270 -4326 -2880 2464 -2541 -1472 -1702 -1544 620 1033 -1291 1975 -758 2768 861 545 -1365 1641 -54 -2961 -3847 -4019 -4812 -3976 -1806 -2165 -673 -2432 -1504 -1748 -14 -2452 -3996 -4017 -3963 -1417 -1034 3503 1811 1939 1934 4847 3531 3872 3318 2412 1311 3745 3272 1014 -55 -1296 -1447 -1801 -473 -1208 -754 -1354 -1053 -2362 -1011 62 682 145 2231 759 3537 1811 3099 3465 2198 1353 2919 2279 1497 164 -1430 -948 -2642 -498 -869 -595 -981 -2399 -2123 -1115 -1258 -1501 -1318 -1230 -982 -1363 956 -1882 -1033 1135 -1001 -222 633 -265 -388 -806 -2030 -732 -335 -814 -2534 -1771 -1248 -958
-1466 -2957 -1355 -1730 -2757 -2005 -1817 -1723 -2041 -2772 -1097 -2921 -732 -2118 -1529 -2787 -1607 -863 -2884 -2806 -1492 -2878 -1369 -687 -2892 -810 -1759 -1835 -1799 -2172 -900 -1656 -2665 -639 -1315 -1928 -1960 -2465 -786 -902 -2248 -2260 -2274 -2185 878 -143 -2514 -2067 -1739 -1051 -997 -2385 -2977 -1213 -883 -1066 -2070 -1366 -798 -1158 -681 -2720 -2490 -1290 -1082 484 164 332 -2417 -7594 -6096 -7643 -4719 -3290 -1381 -5159 -2581 -2785 -1040 -980 -1392 -1010 -2415 -2463 -2217 -2840 -2774 -2266 -1683 -1065 -2864 -1532 3556 3435 6231 8195 6627 5160 4515 1484 1128 2474 3692 -2190 196 -1200 1794 470 459 -1506 -1578 -2395 -2825 -1294 -2958 -1630 -2606 -3701 -1728 1512 3718 8577 8541 9777 7571 3071 4107 4313 3448 3058 2170 -3838 -3948 -3454 155 -1178 3854 3093 -55 -1311 -1069 -2459 -1176 -1754 -2331 -5972 -3874 1451 4023 3789 5273 11047 7565 6808 2007 2055 4204 5596 904 770 -232 -6319 -6405 -9657 -857 5374 -830 -1175 -2407 -1622 -1030 -2022 -4187 -6118 -3312 483 2899 2480 3906 4825 5160 8208 9585 10627 10824 9081 6769 3320 1859 -1714 -7973 -9468 -2933 2407 -1435 -1475 -1406 -2799 -1900 -3092 -5262 -4488 231 -780 5447 3143 5184 5077 5998 10423 9687 11091 8861 3101 3037 897 -940 -2372 -6789 -8273 -4369 -56 -1714 -2559 -1202 -2905 -3400 -2649 -2876 -4631 1632 -794 5045 4701 4834 5445 5264 7319 6813 4382 7253 -1393 -102 -162 -1328 1023 -1433 -5447 -1391 -1092 -938 -365 -732 -2237 -3929 -871 -2376 3656 4163 2627 5094 7520 8410 3047 2266 1791 1827 -2851 -3319 -2379 -1844 -141 2091 -3077 -3189 -4342 -1558 264 -1103 -2931 -1766 -2742 -1475 941 1151 3935 9091 5375 4153 3753 743 -624 -3518 -7906 -3354 -9240 -2530 -1535 1844 321 2673 -2419 -2853 151 -107 -3618 -149 -2158 -1066 -1123 -2841 -1752 -598 1589 5450 2308 4173 1006 -853 -1649 -6301 -3230 -1744 -5006 -1767 2086 2649 4981 5125 3023 1658 1897 8321 4086 904 -1290 -1771 -2101 -2472 -1444 2664 1863 -664 -2268 -2460 -1981 -1139 -3828 -7635 -2347 -1578 -1502 2593 3821 2037 6733 6378 333 -1049 3170 4592 1021 1419 -1863 -2167 -1268 -3431 1471 477 -4297 -5767 -1886 -4420 -3179 -3131 -897 -1150 4233 66 2558 3630 1745 3446 7016 3210 -3269 -520 938 244 2641 949 242 -1988 -1621 -3774 -1308 -5882 -8612 -4359 -2975 -3747 -4044 -1025 3377 1120 5499 1367 483 2384 162 3205 -1118 -945 391 -1466 -3048 -2612 1021 639 -1955 -2179 -1058 -2027 -2763 -2143 -1855 -2913 -3649 -3612 -1901 4560 4474 4500 4354 -745 1140 -1471 707 2288 -387 -1643 -1479 -4917 -1943 85 -863 488 -2504 -770 -2483 -900 438 3493 -256 -5724 -5095 -2060 -2056 5718 8868 8191 1114 -3489 -858 -274 3763 -935 -3702 -3898 -5367 -685 1684 -333 541 2341 -1082 -1581 -2596 -2278 2966 2400 -3393 -1525 -700 1078 4540 4611 7716 5913 -520 -7591 -2542 582 1575 -3403 -374 -2121 -3931 -1775 479 1165 1301 950 -434 -2828 -1966 -854 747 -1900 -4428 3574 2309 1572 1408 8796 5372 -1859 -5331 -3903 -120 320 -96 -1403 3145 1139 816 5439 3510 1598 374 -1602 -2570 -2413 -1275 -2627 -3581 -4229 -1442 -903 1958 2559 2564 5222 -788 518 -2904 -3997 -2111 -2792 1403 1836 1784 1787 2914 8498 5669 699 -1359 -1911 -2323 -2519 -2268 -767 -1648 -1437 4334 317 2559 2119 2052 -172 -2066 -2462 2060 -1508 235 -1308 -1166 95 1920 1546 3107 6876 2006 1167 1497 -3106 -1242 -2137 -1395 -829 -2332 -2789 -8031 337 1605 -3535 46 -2725 -362 1542 2408 -915 -1957 1641 -749 -1977 571 671 -286 4972 751 -1934 -2549 -1134 -1309 -2870 -1149 -208 -1285 -4717 -12680 -4886 -1661 -1268 -379 1063 4289 4967 7384 4398 1096 -237 -1480 -1004 -3921 -988 -1443 5342 4522 -1732 -1882 -1431 -703 -2367 -1891 -719 2117 -537 -5432 -6584 -3843 2101 -1248 1138 1813 -1002 3092 4777 5 -1084 -1523 950 -1380 2103 4430 8291 7327 1050 -2403 -3337 -2966 -2703 -1967 -432 -846 -4 -646 1562 2928 5025 225 2908 1476 3639 3819 1748 5646 8013 3285 3505 1263 2466 3623 3903 2533 231 -3173 -846 -1446 -2882 -1472 -2150 -2345 -725 3944 4595 8891 9187 7339 10713 7888 6105 5415 8090 6836 9382 8196 7806 9824 7426 5104 596 -929 -683 -826 -1730 -2325 -2386 -2430 -2172 -1971 67 814 2145 1559 3937 4802 7254 8436 8361 8306 13002 6875 7319 9377 9092 5394 5281 4251 -95 -596 -2672 -2125 -1681 -2007 -663 -2652 -1946 -684 -2496 -2059 -2818 -2422 -1767 -1019 -1122 -2560 -1870 -2525 -1254 -1274 -2278 -3484 -3081 -679 -1843 -806 -1451 -1455 -736 -1899 -940 -1560
-1348 -593 -466 -1481 -1549 -1431 -498 -186 623 -1164 -182 567 -12 -802 -232 -491 92 -1516 -1223 -313 418 286 -661 -1232 -810 -1673 -162 -466 -642 288 -883 -1314 -855 -1080 52 816 1315 624 1257 1963 2977 112 -1343 2285 992 1090 518 102 37 1672 600 1024 -1384 -70 -325 -1400 -1449 57 -413 431 398 -1256 858 4045 5519 3662 6761 7873 9421 6100 6385 8044 7796 5817 5025 3695 3932 3229 3914 2981 -1316 -1656 -975 -647 -625 87 -191 -1147 560 887 4888 5274 6544 9776 5758 11052 9947 13071 12503 10898 9751 5822 9146 7806 4650 2772 100 -102 -99 -1909 -1057 183 -807 -878 -1634 -968 -1826 2057 5575 2434 4845 2621 1805 21 -2788 -592 2682 1956 2673 2898 2533 4987 874 -1877 -1606 -3178 -8346 -3676 279 -1279 -1622 -543 -1523 130 1326 2574 3014 -108 -2916 -3622 -2236 -5294 -2646 -1892 -319 804 1584 -1304 1839 2133 -240 -1087 -3511 -3519 -4102 -5294 -1628 820 21 -1238 -360 1840 1118 -595 -375 -496 1010 19 1833 1191 -1961 -2218 -388 1858 1071 -3091 -1967 -1229 -2531 -3746 -1178 -2323 -3883 -4290 -1077 362 -502 -602 417 877 3351 -1307 -1980 2145 -2112 1080 2345 -1001 854 680 3056 1731 -313 -718 -1674 -170 -1127 -3373 -955 -6639 -6250 -4712 -2875 -1191 328 -1281 970 586 5118 2640 -254 4806 1229 437 1034 568 1210 1520 4146 1161 -214 1470 -2428 -987 410 -2406 1125 -8484 -12200 -5399 -1948 -951 -1057 -613 846 4651 6703 4153 1546 5242 4270 1518 -1452 -2492 -1931 -4842 459 -2731 -3476 -3007 -4056 -3755 -2546 -2683 -1380 -5236 -10136 -6980 -1485 -254 -811 -268 -316 3013 2287 947 357 2687 1579 -4679 -3358 -8247 -12469 -10732 -3044 -4331 -553 210 -1431 -2281 540 -2228 -1764 -701 -5652 -5012 -1063 -1284 -393 -812 902 490 -3212 -7240 -3220 -4721 -6937 -7466 -10939 -10842 -15408 -4994 1778 -2723 1137 -457 -1109 1272 3727 3270 1819 5831 -1086 -5166 -3274 313 187 700 -400 -4376 -7303 -12968 -16158 -15513 -13969 -13288 -11448 -6932 -8997 -94 7313 4587 4183 785 643 -2055 1155 689 1835 3561 1981 971 -545 471 241 -513 -1092 -4128 -11870 -17694 -16740 -14499 -10633 -7929 -2303 -4259 -2579 6469 5284 2419 2579 2796 868 -1050 -514 1319 -3500 5039 8944 -380 308 745 -186 527 731 -4139 -9506 -9873 -4980 -3867 -2727 615 330 4298 5164 5958 3987 2081 2200 -2281 2224 1869 2613 5369 2857 3382 6765 1728 336 -1472 -472 -726 184 -2535 -1974 2038 5042 -969 -1634 -1092 -879 5967 6764 7050 6902 1623 441 465 1656 2417 2868 6041 2254 3362 9015 3837 -1724 -183 -470 -1076 807 4592 5534 5519 5780 1777 120 4550 4678 9312 6948 5806 4219 -559 114 -508 589 3132 -1421 59 1271 3122 9948 6386 2736 361 -904 -1124 2322 6222 2087 2960 2008 474 3539 5243 8124 8971 5600 3999 2036 -1144 -586 -2283 -256 1010 -2915 -3643 510 99 3786 6917 2722 1100 -1432 123 524 7681 2800 447 -3334 2182 3354 3655 5473 3976 6262 3271 405 439 1239 4030 3590 2889 -2622 -4063 -114 4525 5676 8261 708 -1232 -212 -583 485 2242 3409 -1398 -3565 1214 2786 6211 5585 4110 4065 3914 1896 3075 3627 4723 1837 2300 -944 -1465 1368 1744 2649 4566 978 -556 -1643 -593 527 2454 4705 2636 1915 4769 5589 8577 7324 3954 1664 2860 4598 246 1193 679 1602 -376 1045 -1273 -5806 31 2111 3466 488 459 -929 -555 1087 1650 41 -1302 1831 3303 -788 -824 3830 1342 4821 4176 3970 1845 1244 3195 1445 1781 -2288 -7405 -7529 -2360 -62 802 1125 -702 -41 178 518 -5 3122 5505 1320 2598 297 982 -6 32 524 -748 293 1924 784 -561 -3375 -962 -1047 -4311 -3957 -4611 -3504 -373 -1353 -786 65 -813 -1287 -448 2254 4013 1568 987 -3566 -1973 -3965 -1328 -893 1444 -237 560 -2841 -5266 -1889 323 809 1083 1784 -987 -2737 -1146 -52 -624 -529 116 412 1465 1386 -2152 -1527 -1635 -1420 2101 -2311 -3195 824 -1601 -1541 -920 1464 1711 -5493 -3869 -32 -327 -1698 -3441 285 335 -36 444 -439 -455 -807 432 -1057 -4552 -3153 469 1831 1559 1522 444 1492 -3007 -4047 -2565 -2039 -732 -3831 -1618 -3299 -4990 -4318 -2641 -1178 -1385 -1222 -898 500 -1005 279 -624 -2137 -3666 -3085 -1007 51 107 889 406 -3417 -1549 -736 -866 -1488 -525 -241 233 -120 -3683 -1042 138 -138 34 -471 352 -443 -1004 -934 602 -978 -1580 376 59 -966 -1312 1317 -504 194 -1179 315 -49 462 -1061 546 163 98 -988 -1178 -1092 -1644 -564 -632 449
-901 -889 -1450 68 -1236 -891 -753 -508 -443 -1188 -1104 622 -1373 762 -953 -1476 16 -955 88 -975 -636 562 -934 329 349 -602 313 -553 260 -398 578 233 -1274 -1205 609 -574 548 965 -38 -259 1432 -629 165 433 -331 -637 703 -242 -737 -1043 -988 -483 -60 -1136 -682 -892 541 372 -694 -49 647 -716 -129 799 1331 2594 3516 2912 3022 3115 4420 2726 1747 2006 578 331 1520 -94 584 -77 518 -23 -16 576 -1489 565 -65 -1407 216 -2381 -1076 -858 -367 1890 1205 1112 -4262 -95 -1060 -1511 1915 994 -966 20 -2631 -430 233 1195 1676 -553 -760 -1118 690 260 -335 -1304 -1586 -2765 -4067 -2851 -5160 -3179 -2217 -1165 -1686 -2470 -3250 -2214 218 3809 -743 1224 2329 695 1380 3192 -4605 -2040 -886 -508 -1466 -340 -840 -3277 -1491 -7346 -5053 -6621 -2482 -1175 876 -313 -1509 -868 2483 122 2028 4997 4670 4530 5393 4935 2458 4689 -540 -3190 -1409 -512 -915 -782 -1001 -3868 -1218 -4140 -5504 -570 -3474 -3559 -5071 -3313 -4151 -5281 -4787 -4641 -5990 -4785 -4950 -1442 -3169 -1547 4159 2895 -2340 -3223 -1931 -635 640 -669 -493 -5002 -3686 -3812 -3198 -682 1172 557 -1768 593 -5612 -3594 -5042 -6175 -5129 -2214 -1473 -2100 -3176 2936 1738 144 -168 -4127 -1298 -473 982 195 -1126 -3919 -6639 -4805 -2378 -1963 -1855 1651 1512 599 -2311 -2078 -3903 -4106 -2904 -2128 -3776 121 -653 1188 -2538 2262 522 -4339 -2365 -716 -1390 -1419 -667 -4735 -6181 -4916 -3468 -552 -1143 1841 416 577 -79 1275 -4763 -5073 -1769 -3954 -2500 -305 -553 123 -6037 -758 120 -10199 -6302 -2071 -346 -1030 -3470 -5064 -6295 -169 -3658 28 784 972 1201 3809 4229 -3929 -7243 -4887 -4262 890 -2015 -3223 -2870 -1940 -4139 363 -2150 -10708 -6195 -502 -174 -960 -1207 -3565 -8664 -1506 287 1050 -1 2386 287 -4493 -3554 -11860 -11361 -6724 194 -4287 -3261 119 -4611 427 -5183 -2702 -6747 -10634 -4234 -1808 -1080 -211 -928 -1705 -6635 -2754 1490 1892 -1408 -946 -1412 -1750 1955 -908 -8919 -5923 -2906 -3448 -4019 791 933 2633 2646 1447 3628 -3914 -4386 -555 -854 532 -248 -859 -7258 -2343 -113 716 1442 1881 4656 4866 6636 90 -2394 513 -4217 -787 -384 737 -287 3209 5338 10714 5931 222 613 220 178 -1001 -940 551 -1860 708 37 4073 1236 2195 2505 6661 5402 3532 -732 -1230 -1353 -448 -1063 392 215 -75 2085 4727 5610 4498 -91 831 194 63 -1154 2448 -1206 1710 -678 4389 5883 7421 6718 7576 8166 2814 654 -1424 208 -401 688 -1194 -1573 -226 -3135 -3127 2766 6779 1097 247 264 400 -1173 1790 -5968 591 3842 3547 5826 5726 6564 10964 6189 -699 2615 2261 3014 2238 -653 -362 -379 2249 -873 90 1929 11533 1418 -113 -1517 -435 -998 -2122 -4618 718 424 2385 3312 8450 12530 10085 3114 1926 3095 2137 2936 2043 766 -1483 690 1862 178 -3768 481 8114 -790 -617 -163 -1306 -634 -3885 1140 1912 -1143 5550 3675 6697 4912 2684 7210 3619 2585 1324 3256 1413 964 -530 -2026 -1569 -901 4235 5229 4451 -1688 543 -58 -958 -761 -3770 904 2446 1310 4539 2001 2742 4340 5881 1736 3438 3697 3991 3280 1113 840 -1895 567 2189 2008 3252 -1832 1008 1028 -452 303 789 669 283 4564 3652 -1100 1784 532 5075 5881 5463 6223 2806 3898 4474 2432 2890 4589 1998 1324 3294 3992 2542 -2101 -3034 835 603 -724 -804 -27 2971 3747 4019 -162 881 678 4628 4852 7145 4588 4853 4172 2511 802 5973 3446 972 1654 4644 9787 7910 -119 -1616 -914 -691 -1021 -742 -37 1945 1789 2438 1209 -866 1146 1440 3283 2735 2941 4547 -572 1436 803 1344 1874 2300 1398 8776 6156 2259 -2573 -2129 -119 466 313 -212 325 -615 -1103 -1077 -1731 -3610 3694 1102 1957 2025 984 1751 2344 102 924 461 1721 4625 5440 5798 3439 -2259 -2909 344 -1308 567 -364 -432 -774 -3661 -3623 -7128 -7162 -8463 -4459 25 -3843 -1908 -1470 -4053 -725 -1554 -833 -3723 -291 -3658 -4241 -5881 -3572 -3322 704 1313 -1160 -1350 -300 117 432 -1650 -2100 -4496 -8276 -11622 -13724 -16018 -14137 -9492 -13666 -10365 -10767 -8007 -9082 -11132 -11169 -9743 -9567 -9171 -4224 -2254 -2398 370 409 -1201 -107 -373 -384 -578 392 691 -88 -2886 -2236 -5239 -4495 -2727 114 -2620 -6895 -7313 -5482 -2986 -7507 -6544 -3778 -4358 -2817 -164 127 -1083 -849 -1186 -234 152 -469 -1094 -20 -870 80 -1770 -1922 -1150 -2074 -461 -393 -2222 -2245 -1782 83 -230 -1920 -268 683 -2574 -1488 -1622 -304 168 311 -141
