7963 -3002 -293 -8445 -12292 16802 -4969 6668 -6197 13686
4553 17567 -12448 5197 3142 7536 -3442 -17452 9912 -906
16422 12653 -13250 11094 -7847 -2190 -10803 -1310 8116 10146
13084 -4928 -3519 10123 15025 1107 -9896 -113 8623 -6625
-5810 2267 8184 10033 3722 -15925 4108 -12870 -16444 10779
5880 -25141 -13889 -8337 15953 8409 9890 453 1847 670
-6250 -9977 -9350 -14496 2007 -712 8563 -4596 10623 14150
14618 3985 7690 4415 -17275 4015 17751 -9922 12922 -20605
-6134 2032 -18357 8436 7507 11462 3290 5971 -2921 -210
-5099 9613 9584 1564 -6999 7106 6173 7191 -22547 -2237
